{"byte_pairs": {"__sow": 2, "__eow": 3, "e": 4, "t": 5, "n": 6, "i": 7, "o": 8, "s": 9, "r": 10, "a": 11, "l": 12, "c": 13, "p": 14, "d": 15, "u": 16, "f": 17, "h": 18, "m": 19, "-": 20, ".": 21, "g": 22, "_": 23, "\\": 24, "b": 25, "y": 26, ",": 27, "w": 28, "(": 29, ")": 30, "=": 31, "v": 32, "'": 33, ":": 34, "se": 35, "0": 36, "or": 37, "/": 38, "er": 39, "x": 40, "in": 41, "k": 42, "te": 43, "on": 44, "re": 45, "2": 46, "1": 47, "at": 48, "el": 49, "\"": 50, "es": 51, "st": 52, "ro": 53, "rt": 54, "en": 55, "de": 56, "im": 57, "ti": 58, "po": 59, "mp": 60, "co": 61, "le": 62, "om": 63, "nt": 64, "et": 65, "me": 66, "al": 67, "ta": 68, "q": 69, "ar": 70, "as": 71, "th": 72, "an": 73, "fr": 74, "io": 75, "lf": 76, "[": 77, "t_": 78, "]": 79, "*": 80, "e_": 81, "tr": 82, "j": 83, "ra": 84, "li": 85, "ne": 86, "is": 87, "ge": 88, "pa": 89, "fi": 90, "3": 91, "ss": 92, "ct": 93, "ri": 94, "it": 95, "ut": 96, "ma": 97, "nd": 98, "la": 99, "pe": 100, "ng": 101, "ce": 102, "z": 103, "to": 104, "am": 105, "ns": 106, "he": 107, "ed": 108, "lo": 109, "ec": 110, "si": 111, "ex": 112, "il": 113, "na": 114, "ur": 115, "__": 116, "no": 117, "fo": 118, "ac": 119, "):": 120, "pr": 121, "od": 122, "di": 123, "id": 124, "4": 125, "ef": 126, "rs": 127, "ic": 128, "ve": 129, "8": 130, "5": 131, "if": 132, ">": 133, "da": 134, "ou": 135, "ea": 136, "mo": 137, "un": 138, "ch": 139, "ls": 140, "cl": 141, "ts": 142, "ie": 143, "6": 144, "ca": 145, "_i": 146, "ue": 147, "nc": 148, "ol": 149, "ot": 150, "<": 151, "_s": 152, "ad": 153, "pl": 154, "os": 155, "ap": 156, "tu": 157, "ul": 158, "+": 159, "_f": 160, "op": 161, "_c": 162, "em": 163, "9": 164, "ke": 165, "ag": 166, "()": 167, "ll": 168, "7": 169, "ep": 170, "us": 171, "ck": 172, "',": 173, "va": 174, "ty": 175, "_p": 176, "ha": 177, "pt": 178, "lu": 179, "ig": 180, "s_": 181, "lt": 182, "d_": 183, "ai": 184, "ld": 185, "_t": 186, "rr": 187, "oc": 188, ";": 189, "so": 190, "ni": 191, "==": 192, "ab": 193, "tt": 194, "py": 195, "_d": 196, "su": 197, "ho": 198, "n_": 199, "r_": 200, "('": 201, "ba": 202, "yp": 203, "qu": 204, "rn": 205, "oo": 206, "`": 207, "xt": 208, "rm": 209, "nf": 210, "sp": 211, "')": 212, "up": 213, "do": 214, "um": 215, "),": 216, "fa": 217, "vi": 218, "ry": 219, "_m": 220, "ru": 221, "00": 222, "sc": 223, "ir": 224, "_a": 225, "cr": 226, "))": 227, "ob": 228, "wi": 229, "fu": 230, "{": 231, "og": 232, "sh": 233, "ee": 234, "rg": 235, "mi": 236, "ip": 237, "gi": 238, "bl": 239, "pi": 240, "%": 241, "ib": 242, "_l": 243, "gs": 244, "sa": 245, "ds": 246, "pu": 247, "ow": 248, "be": 249, "_r": 250, "_n": 251, "l_": 252, "hi": 253, "eq": 254, "gr": 255, "nu": 256, "@": 257, "du": 258, "rd": 259, "ev": 260, "of": 261, "['": 262, "au": 263, "pp": 264, "ay": 265, "cu": 266, "']": 267, "bo": 268, "iv": 269, "}": 270, "tc": 271, "ui": 272, "(\"": 273, "_e": 274, "rc": 275, "y_": 276, "bu": 277, "tp": 278, "eg": 279, "dd": 280, "ze": 281, "ms": 282, "':": 283, "\",": 284, "iz": 285, "_v": 286, "ht": 287, "bj": 288, "--": 289, "ia": 290, "mm": 291, "np": 292, "je": 293, "go": 294, "ew": 295, "wa": 296, "bs": 297, "yt": 298, "nv": 299, "ua": 300, "_o": 301, "oa": 302, "ov": 303, "!": 304, "ey": 305, "_b": 306, "xc": 307, "nn": 308, "oi": 309, "ys": 310, "sy": 311, "ci": 312, "ax": 313, "_u": 314, "p_": 315, "wo": 316, "g_": 317, "])": 318, "rl": 319, "by": 320, "ub": 321, "ok": 322, "m_": 323, "fe": 324, "bi": 325, "fl": 326, "uc": 327, "],": 328, "xp": 329, "\")": 330, "sk": 331, "gl": 332, "ps": 333, "rp": 334, "rv": 335, "ly": 336, "nl": 337, "o_": 338, "gg": 339, "we": 340, "sv": 341, "jo": 342, "20": 343, "ff": 344, "br": 345, ").": 346, "c_": 347, "h_": 348, "k_": 349, "cc": 350, "mb": 351, "eb": 352, "dr": 353, "10": 354, "gu": 355, "$": 356, "rk": 357, "dt": 358, "='": 359, "gh": 360, "ml": 361, "av": 362, "ud": 363, "tf": 364, "dl": 365, "tl": 366, "_g": 367, "_h": 368, "db": 369, "ug": 370, "=\"": 371, "pd": 372, "ix": 373, "#": 374, "sl": 375, "tm": 376, "xe": 377, "ks": 378, "xi": 379, "ws": 380, "qt": 381, "nk": 382, "cs": 383, "''": 384, "lp": 385, "ki": 386, "ph": 387, "ei": 388, "a_": 389, "td": 390, "w_": 391, "mu": 392, "x_": 393, "ak": 394, "_w": 395, "\"\"": 396, "gn": 397, "|": 398, "rf": 399, "eo": 400, "lm": 401, "wh": 402, "01": 403, "?": 404, "hr": 405, "tw": 406, "sq": 407, "ga": 408, "ye": 409, "yi": 410, "dg": 411, "ft": 412, "ql": 413, "wr": 414, "sw": 415, "cm": 416, "pc": 417, "df": 418, "tk": 419, "([": 420, "hy": 421, "wn": 422, "af": 423, "vo": 424, "ox": 425, "dc": 426, "12": 427, "tn": 428, "sg": 429, "yo": 430, "yl": 431, "b_": 432, "f_": 433, "~": 434, "_k": 435, "sf": 436, "gt": 437, "ja": 438, "kw": 439, "aw": 440, "yn": 441, "ny": 442, "//": 443, "sr": 444, "..": 445, "xx": 446, "hu": 447, "ko": 448, "yr": 449, "xm": 450, "[]": 451, "**": 452, "fs": 453, "oj": 454, "eu": 455, "{}": 456, "js": 457, "dm": 458, "ya": 459, "bd": 460, "pf": 461, "mn": 462, "'.": 463, "ym": 464, "nm": 465, "sm": 466, "ka": 467, ":/": 468, "].": 469, "md": 470, "{'": 471, "dj": 472, "gp": 473, "cy": 474, "xa": 475, "rb": 476, "i_": 477, "gm": 478, "bc": 479, "uf": 480, "pk": 481, "sn": 482, "lc": 483, ")]": 484, "tx": 485, "lb": 486, "hs": 487, "dy": 488, "][": 489, "bp": 490, "t2": 491, "oy": 492, "my": 493, "za": 494, "64": 495, "cp": 496, "13": 497, "v_": 498, "60": 499, "((": 500, "32": 501, "sd": 502, "mr": 503, "dp": 504, "ii": 505, "ik": 506, "kl": 507, "[\"": 508, "tb": 509, "\"]": 510, "cf": 511, "yq": 512, "vm": 513, "oe": 514, "dn": 515, "lg": 516, "tv": 517, "mt": 518, "50": 519, "hm": 520, "yc": 521, "dx": 522, "pb": 523, "uu": 524, "fy": 525, "^": 526, "mg": 527, "+=": 528, "[:": 529, "'\\": 530, ")[": 531, "11": 532, "yb": 533, "x0": 534, "\":": 535, "zi": 536, "ku": 537, "pn": 538, "fg": 539, "!=": 540, "fn": 541, "tg": 542, "uo": 543, "&": 544, "06": 545, "nh": 546, "ww": 547, ".'": 548, ">>": 549, "kg": 550, "sx": 551, "lv": 552, "qs": 553, "bm": 554, "19": 555, "2c": 556, "nr": 557, "16": 558, "_j": 559, "qa": 560, "nb": 561, ".\"": 562, "_q": 563, "fp": 564, "lr": 565, "})": 566, "kt": 567, "bb": 568, "25": 569, "vp": 570, "aa": 571, "30": 572, "28": 573, "02": 574, "eh": 575, "07": 576, "cn": 577, "xw": 578, "``": 579, "kn": 580, "=[": 581, "yd": 582, "b2": 583, "zo": 584, "rw": 585, "v1": 586, "\"/": 587, "fd": 588, "gc": 589, "]:": 590, "40": 591, "0x": 592, "xy": 593, "15": 594, "24": 595, "bt": 596, "f8": 597, "hd": 598, ",'": 599, "22": 600, "iq": 601, "mc": 602, "ek": 603, "gb": 604, "'-": 605, "pm": 606, "pv": 607, "ln": 608, "gy": 609, "cd": 610, "kd": 611, "ji": 612, "hl": 613, "kb": 614, "]]": 615, "pg": 616, "xl": 617, "dw": 618, "'/": 619, "23": 620, ">'": 621, "t5": 622, "hb": 623, "rj": 624, "\".": 625, ":]": 626, "21": 627, "34": 628, "yw": 629, "gd": 630, "lk": 631, "/>": 632, "oq": 633, "hp": 634, "az": 635, "ao": 636, "yg": 637, "t1": 638, "tz": 639, "fc": 640, "sb": 641, "7f": 642, "17": 643, "14": 644, "ae": 645, "cv": 646, "nj": 647, "wd": 648, "ju": 649, "xs": 650, "hc": 651, "33": 652, "fm": 653, "80": 654, "99": 655, "x1": 656, "e2": 657, "y2": 658, "km": 659, "bn": 660, "gv": 661, "dv": 662, "mf": 663, "_x": 664, "18": 665, "iu": 666, "dh": 667, "vs": 668, "'%": 669, "qr": 670, "gf": 671, "kf": 672, "kr": 673, "mk": 674, "mx": 675, "v2": 676, "zz": 677, "v3": 678, "[-": 679, "cb": 680, "ux": 681, "/'": 682, "55": 683, "04": 684, "({": 685, "xr": 686, "09": 687, "t3": 688, "wx": 689, "42": 690, "vc": 691, "zm": 692, "ih": 693, "mq": 694, "qi": 695, "lx": 696, "ez": 697, "vd": 698, "kc": 699, "nw": 700, "zu": 701, "yf": 702, "n1": 703, "\"%": 704, "03": 705, "kp": 706, "qp": 707, "lh": 708, "=(": 709, "e1": 710, "yy": 711, "(*": 712, "o1": 713, "2_": 714, "xd": 715, "nx": 716, "::": 717, "xf": 718, "bf": 719, ",)": 720, "c2": 721, "qo": 722, "hn": 723, "56": 724, "ky": 725, "cg": 726, "a1": 727, "wl": 728, "yz": 729, "cw": 730, "qd": 731, "aj": 732, "2d": 733, "[(": 734, "s2": 735, "'<": 736, "lw": 737, "bv": 738, "mw": 739, "s1": 740, "qw": 741, "rh": 742, "ah": 743, "bg": 744, ":,": 745, "v5": 746, "/)": 747, "05": 748, "xb": 749, "oh": 750, "08": 751, "xo": 752, "qm": 753, "oz": 754, "31": 755, "}'": 756, "uz": 757, "\u00e5": 758, "fb": 759, "wt": 760, "\">": 761, "vr": 762, "fv": 763, ")\"": 764, "qq": 765, "ej": 766, "27": 767, "gq": 768, "nz": 769, "kq": 770, "jr": 771, "vt": 772, "qc": 773, "wk": 774, "_1": 775, "zy": 776, "l2": 777, "px": 778, "wc": 779, "82": 780, "tq": 781, "aq": 782, "={": 783, "</": 784, "ij": 785, "vl": 786, "x2": 787, "xn": 788, ")'": 789, "hh": 790, "bk": 791, "gw": 792, "kk": 793, "dk": 794, "86": 795, "pw": 796, "vg": 797, "\"\\": 798, "fx": 799, "xv": 800, "vb": 801, "a2": 802, "o2": 803, "45": 804, "fh": 805, "1e": 806, "s3": 807, "wp": 808, "u_": 809, "jp": 810, "77": 811, "yv": 812, "vf": 813, "},": 814, "d2": 815, "fk": 816, "hk": 817, "wm": 818, "hw": 819, "%(": 820, "t6": 821, "gz": 822, "vu": 823, "rq": 824, "[[": 825, "vn": 826, "mh": 827, "6c": 828, ">=": 829, "qe": 830, "(-": 831, "hg": 832, "qn": 833, "29": 834, "mv": 835, "qh": 836, "qk": 837, "72": 838, "vv": 839, "_2": 840, "fw": 841, "nq": 842, "wf": 843, "\u00e6": 844, "uk": 845, "r1": 846, "kh": 847, "jj": 848, "yu": 849, "bh": 850, "2o": 851, "cq": 852, "yh": 853, "gk": 854, "qg": 855, "48": 856, "g2": 857, "x8": 858, "dq": 859, "uy": 860, "qb": 861, "35": 862, "hq": 863, "44": 864, "66": 865, "hf": 866, "xh": 867, "zb": 868, "92": 869, ")(": 870, "r2": 871, "bq": 872, "bw": 873, "l1": 874, "qf": 875, "iy": 876, "78": 877, "cj": 878, "p1": 879, "qv": 880, "g1": 881, "cx": 882, "rx": 883, "d1": 884, "zv": 885, "jb": 886, "iw": 887, "uv": 888, "wb": 889, ":-": 890, "vh": 891, "pj": 892, "_y": 893, "\\\\": 894, "xj": 895, "jk": 896, "lq": 897, "yk": 898, "hx": 899, "wu": 900, "jd": 901, "dz": 902, "1b": 903, "hv": 904, ":'": 905, "wy": 906, "fz": 907, "\u00e2": 908, "uq": 909, "?>": 910, ".,": 911, "90": 912, "pq": 913, "2b": 914, "jt": 915, "51": 916, "75": 917, "tj": 918, "vx": 919, "\"?": 920, "sj": 921, "67": 922, "jc": 923, "sz": 924, "kj": 925, "52": 926, "zd": 927, "f2": 928, "bz": 929, "1_": 930, "mj": 931, "<?": 932, "uj": 933, "n3": 934, "yx": 935, "\u00e3": 936, "b6": 937, "lj": 938, "t4": 939, "zl": 940, "mz": 941, "jm": 942, "e3": 943, "gj": 944, "jq": 945, "hj": 946, "pz": 947, "zc": 948, "fj": 949, "70": 950, "qy": 951, "zr": 952, "wg": 953, "u0": 954, "kv": 955, "xu": 956, "hz": 957, "fq": 958, "gx": 959, "uw": 960, "n2": 961, "lz": 962, "zh": 963, "xz": 964, "zs": 965, "65": 966, "jg": 967, "./": 968, "f4": 969, "m2": 970, "83": 971, "uh": 972, "2m": 973, "3d": 974, "zj": 975, "e6": 976, "p6": 977, "2t": 978, "xg": 979, "zw": 980, "jf": 981, "wv": 982, "jh": 983, "zn": 984, "q_": 985, "p2": 986, "1d": 987, "37": 988, "v6": 989, "d3": 990, "zf": 991, "i2": 992, "jn": 993, "zg": 994, "26": 995, "x3": 996, "jy": 997, "kz": 998, "zt": 999, "yj": 1000, "89": 1001, "vq": 1002, "zk": 1003, "y3": 1004, "vk": 1005, "a0": 1006, "wq": 1007, "'}": 1008, "rz": 1009, "zp": 1010, "36": 1011, "xq": 1012, "h2": 1013, "vy": 1014, "43": 1015, "jw": 1016, "41": 1017, "y1": 1018, "x6": 1019, "38": 1020, "vj": 1021, "qj": 1022, "wz": 1023, "bx": 1024, "cz": 1025, "jv": 1026, "}\"": 1027, "49": 1028, "'{": 1029, "vw": 1030, "(?": 1031, "68": 1032, "jz": 1033, "54": 1034, "81": 1035, "xk": 1036, "qx": 1037, "kx": 1038, "qz": 1039, "jl": 1040, "wj": 1041, "vz": 1042, "\u00e4": 1043, "zx": 1044, "\"-": 1045, "88": 1046, "x5": 1047, "61": 1048, "63": 1049, "->": 1050, "c1": 1051, "f1": 1052, "jx": 1053, "53": 1054, "x4": 1055, "76": 1056, "b1": 1057, "_z": 1058, "96": 1059, "'\"": 1060, "o3": 1061, "$'": 1062, "zq": 1063, "46": 1064, "2a": 1065, "\"'": 1066, "2f": 1067, "]+": 1068, "m1": 1069, "57": 1070, "2s": 1071, "39": 1072, "c7": 1073, "p3": 1074, "e5": 1075, "7n": 1076, "x7": 1077, "87": 1078, "1f": 1079, "3_": 1080, "98": 1081, "'^": 1082, "58": 1083, "94": 1084, "+)": 1085, "\u00e7": 1086, "85": 1087, "p4": 1088, "4d": 1089, "47": 1090, "69": 1091, "3c": 1092, "t0": 1093, "<=": 1094, "6_": 1095, "u2": 1096, "f0": 1097, "}}": 1098, "d5": 1099, "73": 1100, "e0": 1101, "d0": 1102, "59": 1103, "62": 1104, "d6": 1105, "9f": 1106, "v4": 1107, "(%": 1108, "\u00a9": 1109, "\u00bc": 1110, ".*": 1111, "f5": 1112, ":`": 1113, "93": 1114, "a4": 1115, "1p": 1116, "\"<": 1117, "95": 1118, "w2": 1119, "c3": 1120, "{\"": 1121, "a6": 1122, "z_": 1123, "g5": 1124, "h1": 1125, "c4": 1126, "]*": 1127, "4e": 1128, "3f": 1129, "97": 1130, "5e": 1131, "b3": 1132, "84": 1133, "2e": 1134, "6e": 1135, "/\"": 1136, "79": 1137, "2p": 1138, "e4": 1139, "t8": 1140, "a3": 1141, "c0": 1142, "i1": 1143, "l3": 1144, "w3": 1145, "8e": 1146, "1s": 1147, "w0": 1148, "+'": 1149, "r3": 1150, "/%": 1151, "e7": 1152, "91": 1153, "0f": 1154, "4c": 1155, "6o": 1156, "o8": 1157, "b0": 1158, "e8": 1159, ":%": 1160, "71": 1161, "9a": 1162, "a5": 1163, "_0": 1164, "\u00e8": 1165, "3b": 1166, "s0": 1167, "0a": 1168, ")}": 1169, "d4": 1170, "6f": 1171, "8d": 1172, "o9": 1173, "74": 1174, ",\"": 1175, "e9": 1176, "j_": 1177, ":\"": 1178, "8f": 1179, "b8": 1180, "2x": 1181, "=%": 1182, "8p": 1183, "\\.": 1184, "4a": 1185, "\u0080": 1186, "m3": 1187, "f7": 1188, "o7": 1189, "o4": 1190, "f3": 1191, "u1": 1192, "x9": 1193, ")+": 1194, ")*": 1195, "9e": 1196, "p0": 1197, "7d": 1198, "o0": 1199, "1c": 1200, "g4": 1201, ");": 1202, "7e": 1203, "2h": 1204, "h5": 1205, "i8": 1206, "0e": 1207, "o5": 1208, "d8": 1209, "9p": 1210, "b5": 1211, "z0": 1212, "q2": 1213, "9v": 1214, "o6": 1215, "s4": 1216, "5b": 1217, "y0": 1218, "h4": 1219, "c6": 1220, "0b": 1221, ">\"": 1222, "z2": 1223, "h0": 1224, "5d": 1225, "b4": 1226, "2n": 1227, "1a": 1228, "1x": 1229, "\"{": 1230, "0d": 1231, "6d": 1232, "\\'": 1233, "2r": 1234, "k2": 1235, "4f": 1236, "p8": 1237, "5c": 1238, "~~": 1239, "m0": 1240, "i0": 1241, "c8": 1242, "0c": 1243, "1t": 1244, "g3": 1245, "2i": 1246, "l4": 1247, ".)": 1248, "a8": 1249, "b9": 1250, "3x": 1251, "5f": 1252, "r0": 1253, "3t": 1254, "v0": 1255, "r9": 1256, "w4": 1257, "p5": 1258, "5a": 1259, "6p": 1260, "6t": 1261, "0p": 1262, "'(": 1263, "6n": 1264, "0m": 1265, "1q": 1266, "w1": 1267, "h3": 1268, "\\\"": 1269, "*(": 1270, "-%": 1271, "u3": 1272, "0o": 1273, "r4": 1274, "[^": 1275, "4_": 1276, "1h": 1277, "'=": 1278, "y4": 1279, "c9": 1280, "9n": 1281, "3e": 1282, "]'": 1283, ")/": 1284, "h6": 1285, "0w": 1286, "n6": 1287, "8v": 1288, "5p": 1289, "1l": 1290, "*)": 1291, "0n": 1292, "j2": 1293, "2y": 1294, "w6": 1295, "4p": 1296, "d9": 1297, "r6": 1298, "7c": 1299, "4y": 1300, "u7": 1301, "8n": 1302, "2l": 1303, "4i": 1304, "1r": 1305, "s6": 1306, "b7": 1307, "3v": 1308, "8o": 1309, "7p": 1310, "f6": 1311, "4b": 1312, "{{": 1313, "5s": 1314, "3a": 1315, "7v": 1316, "k1": 1317, "a7": 1318, "2g": 1319, "8b": 1320, "9c": 1321, "`.": 1322, "8c": 1323, "w8": 1324, "2z": 1325, "a9": 1326, "r5": 1327, "4z": 1328, "\u00ef": 1329, "4g": 1330, "3s": 1331, "u6": 1332, "p9": 1333, "0k": 1334, "-'": 1335, "9d": 1336, "y9": 1337, "}.": 1338, "7b": 1339, "0y": 1340, "7u": 1341, "5m": 1342, "0t": 1343, "1k": 1344, "3p": 1345, "l5": 1346, "3z": 1347, "5t": 1348, "m4": 1349, "c5": 1350, "2w": 1351, "9x": 1352, "4x": 1353, "0z": 1354, "u4": 1355, "3n": 1356, "7j": 1357, "t7": 1358, "d7": 1359, "\u00b8": 1360, "7t": 1361, "m8": 1362, "1j": 1363, "0r": 1364, "1o": 1365, "4w": 1366, "z1": 1367, "5z": 1368, "6w": 1369, "4o": 1370, "j1": 1371, "0s": 1372, "g0": 1373, "6a": 1374, "6b": 1375, "t9": 1376, "w5": 1377, "2u": 1378, "6y": 1379, "n7": 1380, "5h": 1381, "0h": 1382, "i6": 1383, "1m": 1384, "8u": 1385, "l0": 1386, "v9": 1387, "](": 1388, "9b": 1389, "j4": 1390, "l6": 1391, "q8": 1392, "s5": 1393, "8t": 1394, "h8": 1395, "9u": 1396, "2v": 1397, "9o": 1398, "z3": 1399, ")\\": 1400, "4h": 1401, "2j": 1402, "h9": 1403, "y5": 1404, "w9": 1405, "*'": 1406, "n0": 1407, "k0": 1408, "y6": 1409, "q7": 1410, "p7": 1411, "j8": 1412, "8a": 1413, "n5": 1414, "9t": 1415, "3h": 1416, "s8": 1417, "0g": 1418, "3r": 1419, "q5": 1420, "0q": 1421, "y8": 1422, "j3": 1423, "g9": 1424, "q0": 1425, "j6": 1426, "s9": 1427, "g8": 1428, "i3": 1429, "5r": 1430, "h7": 1431, "_3": 1432, "q9": 1433, "4u": 1434, "1y": 1435, "s7": 1436, "'[": 1437, "4s": 1438, "]}": 1439, "4t": 1440, "u8": 1441, "g6": 1442, "2k": 1443, "g7": 1444, "j0": 1445, "7m": 1446, "9h": 1447, "7a": 1448, "7z": 1449, "n4": 1450, "z5": 1451, "7o": 1452, "1u": 1453, "5v": 1454, "q6": 1455, "0u": 1456, "r7": 1457, "4j": 1458, "5u": 1459, "y7": 1460, "z4": 1461, "z7": 1462, "1v": 1463, "3l": 1464, "0_": 1465, "i4": 1466, "6m": 1467, "z6": 1468, "f9": 1469, "8m": 1470, "n8": 1471, "w7": 1472, "4m": 1473, "u5": 1474, "z8": 1475, "q1": 1476, "q4": 1477, "k8": 1478, "u9": 1479, "7r": 1480, "6h": 1481, "4q": 1482, "1z": 1483, "9j": 1484, "6v": 1485, "4n": 1486, "m5": 1487, "8s": 1488, "9m": 1489, "n9": 1490, "(\\": 1491, "r8": 1492, "8i": 1493, "3m": 1494, "3w": 1495, "q3": 1496, "3g": 1497, "5x": 1498, "3y": 1499, "z9": 1500, "3u": 1501, "6u": 1502, ".]": 1503, "v7": 1504, "j7": 1505, "7y": 1506, "5n": 1507, "0j": 1508, "i5": 1509, "5y": 1510, "3j": 1511, "j9": 1512, "j5": 1513, "8h": 1514, "9w": 1515, "k4": 1516, "1n": 1517, "i9": 1518, "8z": 1519, "l7": 1520, "0i": 1521, "2q": 1522, "1g": 1523, "7h": 1524, "6i": 1525, "5j": 1526, "##": 1527, "8j": 1528, "4v": 1529, "7g": 1530, "7s": 1531, "8r": 1532, "8q": 1533, "9z": 1534, "7x": 1535, "6j": 1536, "><": 1537, "1w": 1538, "m9": 1539, "6q": 1540, "5q": 1541, "]\"": 1542, "3o": 1543, "8l": 1544, "1i": 1545, "m7": 1546, "\u008c": 1547, "k5": 1548, "9r": 1549, "6l": 1550, "0l": 1551, "8y": 1552, "3k": 1553, "m6": 1554, "4l": 1555, "5w": 1556, "v8": 1557, "6x": 1558, "7w": 1559, "5o": 1560, "\u009a": 1561, "6s": 1562, "7q": 1563, "6z": 1564, ",:": 1565, "(.": 1566, "4r": 1567, "k3": 1568, "+/": 1569, "'*": 1570, "8g": 1571, "\u00b6": 1572, "3i": 1573, "5g": 1574, "9k": 1575, "8x": 1576, "3q": 1577, "k7": 1578, "5k": 1579, "l9": 1580, "5_": 1581, "l8": 1582, "8w": 1583, "5i": 1584, "7i": 1585, "\u0088": 1586, "9y": 1587, "k6": 1588, "i7": 1589, "0v": 1590, "'+": 1591, ",(": 1592, "7l": 1593, "++": 1594, "k9": 1595, "6r": 1596, "9s": 1597, "8k": 1598, "7k": 1599, "9l": 1600, ":\\": 1601, ".\\": 1602, "<<": 1603, "\u009c": 1604, "9g": 1605, "4k": 1606, "6k": 1607, "5l": 1608, "6g": 1609, "/*": 1610, "[\\": 1611, "9q": 1612, ".%": 1613, "9i": 1614, "!'": 1615, "/{": 1616, "\u00ba": 1617, ",[": 1618, "-=": 1619, "\"[": 1620, "\"(": 1621, "\u00e9": 1622, "/(": 1623, "!\"": 1624, "'>": 1625, "\u0094": 1626, "'#": 1627, ")`": 1628, "?:": 1629, "\u00bb": 1630, "_4": 1631, "\u00a8": 1632, "\u00bd": 1633, ",-": 1634, "\u00b0": 1635, "*,": 1636, "^\\": 1637, "\u00af": 1638, "}/": 1639, "/.": 1640, "=-": 1641, "+\"": 1642, ")-": 1643, "*.": 1644, ">\\": 1645, "%%": 1646, "\u00a1": 1647, "\u008f": 1648, "?)": 1649, "\u0097": 1650, "*\"": 1651, "9_": 1652, "\u0087": 1653, "*?": 1654, "*/": 1655, "\u0084": 1656, "`)": 1657, "?\"": 1658, "\"}": 1659, "[{": 1660, "-\"": 1661, "\u0082": 1662, "\"+": 1663, "\u0090": 1664, "\u00bf": 1665, "\u00b9": 1666, "\u00ad": 1667, "\u0089": 1668, "`,": 1669, ",\\": 1670, "\"*": 1671, ";'": 1672, "_6": 1673, ">]": 1674, "<>": 1675, "|\\": 1676, "*\\": 1677, "(@": 1678, "}\\": 1679, "\u00a5": 1680, "\u0099": 1681, "\u008d": 1682, "\\]": 1683, ")?": 1684, "?'": 1685, "*[": 1686, ">,": 1687, "\\[": 1688, "\u008b": 1689, "\u009d": 1690, "]=": 1691, "}:": 1692, ">.": 1693, "\u00ae": 1694, "\u008e": 1695, "[%": 1696, "'$": 1697, "*=": 1698, "\u0095": 1699, "\u0096": 1700, ".+": 1701, "\u00a4": 1702, "^(": 1703, "\u0086": 1704, "_5": 1705, "\u009f": 1706, "]\\": 1707, "|'": 1708, "8_": 1709, "-]": 1710, "}]": 1711, "%.": 1712, "\u00f0": 1713, "\u0083": 1714, "<%": 1715, "{%": 1716, "+\\": 1717, "[<": 1718, "'@": 1719, "?\\": 1720, "/$": 1721, "%'": 1722, ")>": 1723, ":{": 1724, "'|": 1725, "\u0081": 1726, "';": 1727, "/=": 1728, "}{": 1729, "=.": 1730, "\u0098": 1731, ">%": 1732, "\u009b": 1733, "\"$": 1734, "\u00b4": 1735, "'&": 1736, "\"#": 1737, "%}": 1738, ">[": 1739, "\u00be": 1740, "(:": 1741, ";\"": 1742, "];": 1743, "#'": 1744, "/+": 1745, "'~": 1746, ">)": 1747, "[.": 1748, "`~": 1749, "=/": 1750, ")$": 1751, "\u00aa": 1752, ")=": 1753, "'?": 1754, "\u00ac": 1755, "\"!": 1756, "`'": 1757, "/~": 1758, ",#": 1759, "\u0092": 1760, "+-": 1761, "(<": 1762, "\u00a6": 1763, "|=": 1764, "+(": 1765, "\\(": 1766, "&&": 1767, ":(": 1768, "\\)": 1769, "$\"": 1770, "\u00b1": 1771, "]/": 1772, "'!": 1773, "-.": 1774, "\u00a7": 1775, "\u00a2": 1776, "=\\": 1777, "\u0091": 1778, "@'": 1779, ":=": 1780, "+?": 1781, "\u00b3": 1782, ":[": 1783, "\"=": 1784, "<!": 1785, "/\\": 1786, "-(": 1787, "/]": 1788, "%\"": 1789, ".{": 1790, "_9": 1791, "~/": 1792, "]{": 1793, "\u00b7": 1794, "=>": 1795, "'`": 1796, "\u0093": 1797, "^>": 1798, ".:": 1799, "\\*": 1800, "^'": 1801, "%,": 1802, "-+": 1803, "\u009e": 1804, ")<": 1805, "*{": 1806, "*:": 1807, "|(": 1808, "]-": 1809, "||": 1810, "&'": 1811, ":.": 1812, "\u00ab": 1813, ">{": 1814, "*$": 1815, "?(": 1816, "\u00a3": 1817, ">(": 1818, "?<": 1819, ",}": 1820, "+[": 1821, "/?": 1822, "${": 1823, "?[": 1824, "\\-": 1825, "!\\": 1826, "\u008a": 1827, "-\\": 1828, "){": 1829, "\\/": 1830, "\u00b5": 1831, "@\"": 1832, "~'": 1833, "\"^": 1834, "}(": 1835, ">}": 1836, "?!": 1837, "{:": 1838, "};": 1839, "]?": 1840, ",.": 1841, "\";": 1842, "??": 1843, ".(": 1844, "<'": 1845, "*-": 1846, "`(": 1847, "`%": 1848, "+|": 1849, "^\"": 1850, ")|": 1851, ",]": 1852, ">&": 1853, ">`": 1854, "+$": 1855, "{(": 1856, "\u00f1": 1857, "\"@": 1858, "%-": 1859, "@%": 1860, "[@": 1861, "($": 1862, "?$": 1863, "]|": 1864, "^[": 1865, ",%": 1866, "}&": 1867, "`:": 1868, "*>": 1869, "\\{": 1870, "\u00ee": 1871, "!!": 1872, "/-": 1873, "\u00e3\u00bc": 1874, "+]": 1875, ")%": 1876, "]>": 1877, "#\"": 1878, "_8": 1879, "(`": 1880, "<(": 1881, ",*": 1882, "-*": 1883, "\\?": 1884, ".<": 1885, "-)": 1886, "-{": 1887, "[+": 1888, "{\\": 1889, "$)": 1890, "\u00b2": 1891, "\"|": 1892, "}>": 1893, "@[": 1894, "}-": 1895, "-?": 1896, ";\\": 1897, "\\$": 1898, "$%": 1899, "\"`": 1900, "\\}": 1901, "}<": 1902, "|-": 1903, "7_": 1904, "#%": 1905, "#@": 1906, "?=": 1907, "!-": 1908, "|\"": 1909, ":*": 1910, "$\\": 1911, "]`": 1912, "/#": 1913, "^/": 1914, ":<": 1915, "\u009a\u0084": 1916, "`-": 1917, "=+": 1918, ">@": 1919, "=?": 1920, ",{": 1921, "%\\": 1922, "\u00ef\u00bc": 1923, ".[": 1924, "<{": 1925, "}`": 1926, "<\\": 1927, "}[": 1928, "]<": 1929, "|[": 1930, "`[": 1931, "\u0097\u00a5": 1932, ")#": 1933, "\"&": 1934, "`\"": 1935, "}$": 1936, "|$": 1937, "?{": 1938, "/[": 1939, "_7": 1940, "\u0080\u0099": 1941, ":#": 1942, "#\\": 1943, "r\u00e3": 1944, "*<": 1945, "*]": 1946, "/<": 1947, "\u009c\u0088": 1948, "^{": 1949, "![": 1950, "\\|": 1951, "`\\": 1952, "[~": 1953, "{!": 1954, "=]": 1955, "\u00e5\u00b9": 1956, "*|": 1957, "[*": 1958, "\u00f8": 1959, ":>": 1960, ":^": 1961, "(&": 1962, "#:": 1963, ")&": 1964, ":)": 1965, "?|": 1966, "}=": 1967, "`{": 1968, "[?": 1969, "|^": 1970, "#.": 1971, "^<": 1972, "=<": 1973, "\"~": 1974, "<-": 1975, "-[": 1976, "\\:": 1977, "/@": 1978, "(/": 1979, "@@": 1980, ";)": 1981, "$(": 1982, "-`": 1983, "c\u00e3": 1984, "\u00e5\u00ba": 1985, "&(": 1986, ".?": 1987, "+.": 1988, "|%": 1989, ".|": 1990, "\u00e5\u00bc": 1991, "+,": 1992, ".-": 1993, "&#": 1994, ";|": 1995, "$$": 1996, "^$": 1997, "\u00ec": 1998, "|<": 1999, "|!": 2000, "$|": 2001, "-|": 2002, "+%": 2003, ")!": 2004, "[,": 2005, ">|": 2006, "}%": 2007, "{.": 2008, "\\#": 2009, "\\%": 2010, "`]": 2011, "\u00e5\u00bd": 2012, ";}": 2013, "#(": 2014, "\u00e4\u00ba": 2015, "=|": 2016, "~\"": 2017, "(!": 2018, "\u0094\u0082": 2019, "\u00e1": 2020, "^=": 2021, "$@": 2022, "*%": 2023, "!]": 2024, "(#": 2025, "!/": 2026, "\u0096\u0093": 2027, "?,": 2028, "n\u00e6": 2029, "\\@": 2030, "*+": 2031, "!%": 2032, "<\"": 2033, ">/": 2034, "s\u00e3": 2035, "d\u00e3": 2036, "\u00ee\u00bc": 2037, "!)": 2038, "}*": 2039, "^|": 2040, "[/": 2041, "\u0096\u0087": 2042, "&]": 2043, ">-": 2044, "\u00e3\u00b3": 2045, "k\u00e3": 2046, "\u00ba\u00e5": 2047, "<[": 2048, ">;": 2049, "\\,": 2050, "/,": 2051, "\\+": 2052, ",,": 2053, "#!": 2054, "=)": 2055, "{-": 2056, "&=": 2057, ">!": 2058, "\u0088\u0091": 2059, "\u009d\u009e": 2060, "\u0080\u0092": 2061, "\u0090\u009c": 2062, "\u00b4\u00a2": 2063, "@{": 2064, "\u00bb\u00b6": 2065, "]!": 2066, "^.": 2067, ",+": 2068, "y\u00e5": 2069, "{[": 2070, "\u00e0": 2071, "\u00f9": 2072, "?]": 2073, "n\u00e3": 2074, "^%": 2075, "t\u00e3": 2076, ":;": 2077, "=#": 2078, "}+": 2079, "&{": 2080, "[#": 2081, "-/": 2082, "+<": 2083, "j\u00e6": 2084, "/^": 2085, "#[": 2086, ",;": 2087, "(~": 2088, "%)": 2089, "=$": 2090, "[!": 2091, "\\&": 2092, ".$": 2093, "#]": 2094, "~|": 2095, "\\^": 2096, "#$": 2097, "(^": 2098, "e\u00e2": 2099, "}?": 2100, "@*": 2101, "]#": 2102, "9\u00e6": 2103, "^&": 2104, ";(": 2105, ">:": 2106, "|>": 2107, "?/": 2108, "|/": 2109, "^)": 2110, "\u00eb": 2111, "n\u00e4": 2112, "}!": 2113, "}^": 2114, "}@": 2115, ";%": 2116, "(|": 2117, "\u00e4\u00bd": 2118, "&\\": 2119, ":}": 2120, "\u009c\u00a8": 2121, "$[": 2122, ";@": 2123, "\u00bcn": 2124, "(]": 2125, "\u0095\u00b0": 2126, "{|": 2127, "*@": 2128, ";:": 2129, "@)": 2130, "*`": 2131, "!>": 2132, "^-": 2133, "\u0088\u00b0": 2134, "+;": 2135, "?-": 2136, "`$": 2137, "6\u00e5": 2138, "5\u00e6": 2139, "!~": 2140, "|&": 2141, "@#": 2142, "&-": 2143, "`/": 2144, "&)": 2145, "\u00e4\u00bc": 2146, "\u0080\u009d": 2147, "-:": 2148, "-}": 2149, "/;": 2150, "i\u00e3": 2151, "*;": 2152, "\u00d7": 2153, "^~": 2154, "%{": 2155, "*}": 2156, "#,": 2157, "$*": 2158, "~.": 2159, "(=": 2160, "@(": 2161, "%^": 2162, "&*": 2163, "+{": 2164, ")^": 2165, "\u00f0\u00bd": 2166, "*!": 2167, "+>": 2168, "<]": 2169, ";<": 2170, "!?": 2171, "+:": 2172, "m\u00e3": 2173, "|~": 2174, ")@": 2175, "\u0098\u00af": 2176, "`>": 2177, "~=": 2178, "\u009c\u0080": 2179, ".@": 2180, "|;": 2181, "|,": 2182, "#{": 2183, "g\u00e3": 2184, "\u00be\u00e5": 2185, "%]": 2186, ".>": 2187, ">*": 2188, ">$": 2189, "}|": 2190, "|)": 2191, "e\u00e5": 2192, ",$": 2193, "\\`": 2194, ">?": 2195, "\u00a5'": 2196, "\u00bc\u00e3": 2197, "!<": 2198, ",<": 2199, "\u00b3w": 2200, "/`": 2201, "@}": 2202, "\u00bd\u00f0": 2203, "\u00e3\u00bd": 2204, "%#": 2205, ";]": 2206, ":!": 2207, "$?": 2208, "@\\": 2209, "~%": 2210, "?&": 2211, "%&": 2212, "#>": 2213, "+&": 2214, "^#": 2215, "{*": 2216, "!(": 2217, "#-": 2218, "{)": 2219, "&\"": 2220, "f\u00e3": 2221, "-<": 2222, "/|": 2223, "%+": 2224, "+@": 2225, "\u0082\u00ac": 2226, "\u00ed": 2227, ",?": 2228, "~(": 2229, ":?": 2230, "?@": 2231, "\u0080\u0082": 2232, "@`": 2233, "`+": 2234, "\u008f\u008d": 2235, "\\=": 2236, "\u0090\u008d": 2237, "\u0082\"": 2238, "&%": 2239, "^;": 2240, "-!": 2241, "%=": 2242, "?}": 2243, "(,": 2244, ";+": 2245, "!$": 2246, ";=": 2247, "\u009c\u00ac": 2248, "[&": 2249, "^`": 2250, "u\u00e5": 2251, "\u00ba\u00ba": 2252, ">^": 2253, "+`": 2254, "\u0081\u0088": 2255, "\u00b8\u00ad": 2256, "\u00b8\u008d": 2257, "\u00b8\u0080": 2258, "=~": 2259, ".}": 2260, "|.": 2261, "%/": 2262, "@]": 2263, "h\u00e3": 2264, ":|": 2265, "!@": 2266, "@&": 2267, "?%": 2268, "\u009f'": 2269, "\\;": 2270, "\u0080\u009c": 2271, "{?": 2272, "\u00b8\u0082": 2273, "<@": 2274, "%`": 2275, "q\u00e6": 2276, "\u0099\u00a8": 2277, "%|": 2278, ">+": 2279, "`<": 2280, "*#": 2281, "\u00b8\u008b": 2282, "@+": 2283, "[)": 2284, "#+": 2285, ";{": 2286, "{#": 2287, "!*": 2288, "^:": 2289, "#<": 2290, "^@": 2291, "\u00e5\u00be": 2292, ":+": 2293, "\u00f0\u00be": 2294, "a\u00e5": 2295, "|#": 2296, "#~": 2297, "@<": 2298, "~]": 2299, "`!": 2300, "@-": 2301, "\u00a1\u00a8": 2302, "\u00b8\u008a": 2303, "&?": 2304, "\u00e3\u00aa": 2305, "?*": 2306, "\u0089\u0080": 2307, "(>": 2308, "$=": 2309, "-;": 2310, "\u0096\u0080": 2311, "^+": 2312, "\u00a9\"": 2313, "\u0080\u0093": 2314, "\u0080\u009a": 2315, "\u00e6\u00b5": 2316, "\u0088\u0097": 2317, "\u00ba\u00ef": 2318, "(+": 2319, ";,": 2320, ",&": 2321, "|@": 2322, "{$": 2323, "\u00bcr": 2324, "\u0080\u008f": 2325, "\u00f0\u00b3": 2326, ",@": 2327, "z\u00e3": 2328, "\u00f0\u00b5": 2329, ";[": 2330, "\u00b3\u00e5": 2331, "$&": 2332, "~)": 2333, "\u00a6'": 2334, "\u00bb\u00a3": 2335, "^!": 2336, ":$": 2337, "\u00ad'": 2338, "\u00b8'": 2339, "\u0092\u008c": 2340, "\u00e4\u00b9": 2341, "%<": 2342, "\u00a4\u00a7": 2343, "\u00af\\": 2344, ";;": 2345, "o\u00e3": 2346, "+*": 2347, "\u00ef\u00be": 2348, "-$": 2349, "]%": 2350, "<|": 2351, ".#": 2352, "n\u00e2": 2353, "\u00e7\u00ba": 2354, "\u00b9\u00e4": 2355, "%!": 2356, "=@": 2357, ",/": 2358, "&|": 2359, ":@": 2360, "?#": 2361, "\u0095\u008c": 2362, "\u00bc\u00e4": 2363, "\\>": 2364, "^}": 2365, ".;": 2366, "s\u00e4": 2367, "#^": 2368, "\u00bb\u0098": 2369, "\u00ae\u00a4": 2370, "^,": 2371, ">#": 2372, "@$": 2373, "*^": 2374, "\u0088'": 2375, ".`": 2376, "\u00e3\u00ba": 2377, ".~": 2378, "\u009c\u009f": 2379, "\u0097\u00b4": 2380, "\u00bd\u00e6": 2381, ",|": 2382, "%?": 2383, "}~": 2384, "\u0081\u008f": 2385, "\u0082\u0089": 2386, "\u0081\u00a8": 2387, "\u0081\u00bf": 2388, "\u00bf/": 2389, "\u008f/": 2390, "n\u00ec": 2391, "\u009b\u0094": 2392, "!|": 2393, "@|": 2394, "\u00a9'": 2395, "l\u00e3": 2396, "\u0081\u008b": 2397, "\u0081\u009f": 2398, "\u00f0\u00ba": 2399, "^*": 2400, "]$": 2401, "l\u00e4": 2402, "\u0080\u00a6": 2403, "/:": 2404, "v\u00e4": 2405, "\u009a%": 2406, "\u00aa\u00e5": 2407, "\u00e8\u00be": 2408, "\\!": 2409, "{<": 2410, "[;": 2411, "<:": 2412, "\u0088\u00b7": 2413, "%@": 2414, "|{": 2415, "\u00bcl": 2416, "v\u00e3": 2417, "%$": 2418, "\u0094\u00a8": 2419, "\u00b2\u00e5": 2420, "\u00be\u00e3": 2421, ",`": 2422, ";&": 2423, "?;": 2424, "\u00ba\u00e3": 2425, "{~": 2426, "=`": 2427, "<`": 2428, "\u008c\u0097": 2429, "\u00bf\u0099": 2430, "\u0088\u00b1": 2431, "+~": 2432, "<*": 2433, "?+": 2434, "|+": 2435, "@>": 2436, "=}": 2437, "&;": 2438, "<;": 2439, "{,": 2440, "`@": 2441, "@:": 2442, "\u00a8\u00a1": 2443, "\u008d\u00ae": 2444, "\u00b9\u00e8": 2445, "\u00b1\u00a1": 2446, "\u00ae\u009e": 2447, "\u00f6": 2448, "@.": 2449, "#`": 2450, "=!": 2451, "~{": 2452, "=*": 2453, "&>": 2454, "\u00d7\u0091": 2455, "<.": 2456, "+#": 2457, "\u00ef\u00bd": 2458, "\u00b8\u00b8": 2459, "}#": 2460, "\\<": 2461, "\u0089\u00a5": 2462, "<&": 2463, "?`": 2464, "{`": 2465, "\u00e6\u00b3": 2466, "%>": 2467, "j\u00e4": 2468, "\u00aat": 2469, "!:": 2470, "\u00e7\u00bd": 2471, "\u00bd\u00e5": 2472, "\u0080\u0094": 2473, ";-": 2474, "\u0096\u008c": 2475, "\u0081\u0084": 2476, "_\u00e3": 2477, "\u00ban": 2478, "\u008f\u0096": 2479, "\u0087\u0091": 2480, "\u00aa\u00e4": 2481, "\u00bf\u0094": 2482, "\u009b\u009e": 2483, "%;": 2484, "(;": 2485, "[$": 2486, "^]": 2487, "-#": 2488, "]@": 2489, "e\u00e3": 2490, "\u00f8\u00b9": 2491, "\u00a1\\": 2492, "y\u00eb": 2493, "j\u00ec": 2494, "\u0080.": 2495, "[|": 2496, "\u00bd\u00e4": 2497, "\u0081\u00af": 2498, "\u00be\u00f0": 2499, "\u00ba\u00f0": 2500, "*~": 2501, "?.": 2502, "~!": 2503, "=:": 2504, "\u00ab\u0098": 2505, "%:": 2506, "~`": 2507, "\u00ea": 2508, "\u0089'": 2509, "#|": 2510, "`;": 2511, "#)": 2512, "\u00b8\u00b4": 2513, "\u008c\u0096": 2514, "\u008c\u0087": 2515, "\u009f\u008e": 2516, "\u0099\"": 2517, "&<": 2518, "\u0088\u00ab": 2519, "!,": 2520, "`#": 2521, "(}": 2522, "{>": 2523, "`}": 2524, "\u0099\u009f": 2525, "\u009f\"": 2526, "\u009c\u0089": 2527, "\u0099\u0090": 2528, ";?": 2529, "{]": 2530, "r\u00e2": 2531, "\u0099\u00a4": 2532, "l\u00e2": 2533, "\u009d:": 2534, "t\u00e2": 2535, "\u00bd\u00ef": 2536, "\u00b3\u00e9": 2537, "\u0097\u00ad": 2538, "\u00ac\"": 2539, "%*": 2540, "<)": 2541, "\u00b5\u00f0": 2542, "t\u00e4": 2543, "\u00b9\u00e3": 2544, "&$": 2545, "~#": 2546, "\u00b0-": 2547, "\u0090-": 2548, "\u00b9\u00e9": 2549, "$+": 2550, "\u009d\u00a5": 2551, "\u00a6\"": 2552, "~-": 2553, "<#": 2554, ";^": 2555, "-@": 2556, "%~": 2557, "!}": 2558, "+!": 2559, "^?": 2560, "$-": 2561, "!;": 2562, "*&": 2563, "{@": 2564, "&`": 2565, "\u0096\u0084": 2566, "|]": 2567, ".^": 2568, "\u0082'": 2569, "m\u00e6": 2570, "\u00a8\u008b": 2571, "\u0097\u00b6": 2572, "\u00bf\u009d": 2573, "\u00b9\u00e5": 2574, ":&": 2575, "~*": 2576, "!^": 2577, "<$": 2578, "m\u00e2": 2579, "\u00f8\u00b3": 2580, "=&": 2581, "\u0089\u008d": 2582, "|`": 2583, "\u00be\u00e7": 2584, "\u00af\u0086": 2585, "\u0087\u008f": 2586, "|}": 2587, "&@": 2588, "\u00bcy": 2589, "k\u00e5": 2590, "\u00bce": 2591, "\u00b3d": 2592, "\u00af\u00b7": 2593, "\u00b0'": 2594, "`?": 2595, "$;": 2596, "\u00a2'": 2597, "\u00a7\u00b0": 2598, "\u008f\u008b": 2599, ";/": 2600, "\u00f0\u00bc": 2601, "|?": 2602, "|*": 2603, "\u0088\u0096": 2604, "@^": 2605, "!+": 2606, "@=": 2607, "\u0081\u0082": 2608, "\u0086'": 2609, "\u009d.": 2610, "#;": 2611, "\u0080\u0081": 2612, "\u0081'": 2613, "\u00af\u0095": 2614, "\u0095\"": 2615, "~+": 2616, "\u00bf\u0087": 2617, "\u008e\u00b7": 2618, "\u0095\u00bf": 2619, "\u009e\u008d": 2620, "d\u00e5": 2621, "\u00a6\u0081": 2622, "\u00ee\u00ba": 2623, "\u00ee\u00b3": 2624, "#/": 2625, "!.": 2626, "\u00fc": 2627, "\u00df": 2628, "\u00e4\u00f6": 2629, "\u00f6\u00fc": 2630, "\u00fc\u00df": 2631, "/}": 2632, "d\u00e2": 2633, "\u00b3\u00f8": 2634, "\u009e\u0081": 2635, "\u009f\u0082": 2636, "\u009e\u0086": 2637, "\u009f\u0092": 2638, "\u009e\u0093": 2639, "\u009e\u00b6": 2640, "\u009f\u0086": 2641, "\u0083\\": 2642, "\u0098\u009f": 2643, "\u0091\"": 2644, "\u00a4/": 2645, "a\u00e3": 2646, "\u0087/": 2647, "\u008d'": 2648, "\u0081\u0091": 2649, "\u0091'": 2650, "\u00b0\"": 2651, "$,": 2652, "]~": 2653, "g\u00e4": 2654, "\u0081\u00a7": 2655, "\u008b'": 2656, "\u009d\u00a4": 2657, "\u00a4'": 2658, "\u0088\u00b4": 2659, "\u00e8\u00aa": 2660, "\u008d\"": 2661, "\u0096\u0089": 2662, "\u0088\u0086": 2663, "\u0083\u008f": 2664, "1\u00e4": 2665, "\u00ae\u00a1": 2666, "\u00ae\u0097": 2667, "\u00a6\u0082": 2668, "\u008e\u0087": 2669, "\u0080\u0089": 2670, "\u008b\u00a9": 2671, "\u00bd\u00e7": 2672, "\u00b0\u008f": 2673, "\u00bc\u00e7": 2674, "\u0094\u00bb": 2675, "\u008e\u00b0": 2676, "a\u00e8": 2677, "\u00ae\u009a": 2678, "n\u00e7": 2679, "s\u00e6": 2680, "\u00e8\u00bd": 2681, "$`": 2682, "\u009d\"": 2683, "\u00b1\u00bb": 2684, "\u009b\u00ae": 2685, "\u00ba\u00e2": 2686, "\u009d]": 2687, "$]": 2688, "~\\": 2689, "\u00a7\"": 2690, "\u00a5\u0080": 2691, "\u0086\u0092": 2692, "\u0097'": 2693, "\u00b1'": 2694, "\u00a1\u008c": 2695, "\u00ad\u0090": 2696, "\u00b9\u00f9": 2697, "\u00b0/": 2698, "[}": 2699, "\u00bcz": 2700, "p\u00e4": 2701, "d\u00e4": 2702, "z\u00e4": 2703, "a\u00e4": 2704, "=^": 2705, "\u0093\u008d": 2706, "\u00bb\u00a4": 2707, "\u00e7\u00bc": 2708, "\u00b9\u00b3": 2709, "\u008f\u00b0": 2710, "\u0099\u00bb": 2711, "\u00af'": 2712, "\u00ba\u00e9": 2713, "\u00af\"": 2714, "\u00ee\u00b5": 2715, "\u00ee\u00b9": 2716, "\u00ee\u00bd": 2717, "&^": 2718, "$^": 2719, ".!": 2720, "$!": 2721, "\u0094]": 2722, "\u00b3\u00f0": 2723, "i\u00e4": 2724, "\u00e3\u00b2": 2725, "\u00b2\u00e3": 2726, "\u00e3\u00b9": 2727, "\u00bd\u00e3": 2728, "\u00aa\u00e3": 2729, "\u00e3\u00b5": 2730, "\u00b5\u00e3": 2731, "\u00e3\u00be": 2732, "\u00e4\u00be": 2733, "\u00af,": 2734, "#}": 2735, "\u00b5\u00e7": 2736, "\u0080\u00a7": 2737, "\u009c\u0081": 2738, "\u008d\u008e": 2739, "\u00ad\u00a6": 2740, "\u0089\u008b": 2741, "\u00a7\u0081": 2742, "\u00bb\u0091": 2743, "\u00a4\u009c": 2744, "\u008f\u00ab": 2745, "\u00ad\u0099": 2746, "\u0082\u009f": 2747, "n\u00e5": 2748, "\u0096\u009c": 2749, "\u00ac\u00a2": 2750, "\u009c\u008d": 2751, "\u00e1\u00ba": 2752, "\u00bd\u00b2": 2753, "\u00b2\u00e4": 2754, "\u009d\u0084": 2755, "~;": 2756, "!`": 2757, ";*": 2758, "@?": 2759, "<}": 2760, ";!": 2761, ";>": 2762, "`&": 2763, "`^": 2764, "{^": 2765, "~$": 2766, "@;": 2767, ")~": 2768, "!{": 2769, "`*": 2770, "=;": 2771, ";$": 2772, "#=": 2773, "&!": 2774, "8\u00e7": 2775, "g\u00ef": 2776, "\u0087\u008a": 2777, "\u0086\u0099": 2778, "\u0087\u008c": 2779, "\u009f\u00a5": 2780, "\u00a4\u009a": 2781, "\u00ad\u0098": 2782, "\u0082\u00a8": 2783, "\u008c\u0081": 2784, ",!": 2785, "\u00fb": 2786, "\u00b5\u00f1": 2787, "\u009b\u00b8": 2788, "b\u00e3": 2789, "`|": 2790, "~@": 2791, "\u00b1\u0082": 2792, "\u008f\u0082": 2793, "\u0090\u008e": 2794, "\u00b0\u0086": 2795, ">~": 2796, "\u00b6'": 2797, "\u008d\u00b7": 2798, "\u00a7\u00af": 2799, "\u00bf\"": 2800, "\u0090\u008c": 2801, "\u00b0\u00b4": 2802, "\u008c'": 2803, "\u00ac\u00a1": 2804, "u\u00e2": 2805, "\u0090'": 2806, "\u0080\u00a2": 2807, "\u0081\u009c": 2808, "\u00ad\u00a2": 2809, "#?": 2810, "p\u00e3": 2811, "\u00bc\u00f0": 2812, "\u00be\u00f1": 2813, "\u008a\u00a8": 2814, "\u008f'": 2815, "{&": 2816, ";#": 2817, "$<": 2818, "\u0096\u0090": 2819, "b\u00e2": 2820, "\u0084'": 2821, "\u0081\u0086": 2822, "\"\u00d7": 2823, "\u00d7\u00a9": 2824, "\u00a9\u00d7": 2825, "\u00d7\u009c": 2826, "\u009c\u00d7": 2827, "\u00d7\u0095": 2828, "\u0095\u00d7": 2829, "\u00d7\u009d": 2830, "\u0092\u0089": 2831, "\u00e2\u00ba": 2832, "\u00a5\"": 2833, "$.": 2834, "l\u00e8": 2835, "\u0091\u00a8": 2836, "e\u00e4": 2837, "\u0088\u00a4": 2838, "\u0096\u00ad": 2839, "\u00b9\u00e6": 2840, "r\u00e5": 2841, "v\u00e6": 2842, "\u008e\u00a5": 2843, "\u00a2\u00ab": 2844, "\u00a7\u0094": 2845, "\u0089\u0098": 2846, "d\u00e7": 2847, "\u00b3\u00ee": 2848, "\u00b1\"": 2849, "&+": 2850, "#*": 2851, "~[": 2852, "\u00a4)": 2853, "f\u00f8": 2854, "y\u00f8": 2855, "\u00b9\u00f8": 2856, "\u00f8\u00aa": 2857, "j\u00f8": 2858, "\u0094'": 2859, "\u0081\u0095": 2860, "\u0081\u008d": 2861, "&:": 2862, "\u0087\"": 2863, "\u0084\"": 2864, "@,": 2865, "\u0082\u008b": 2866, "\u00a6\u008b": 2867, "\u0090\u009b": 2868, "\u0098)": 2869, "\u0082\u008c": 2870, "\u0095\u009c": 2871, "\u00ea\u00b5": 2872, "\u0096\u00b4": 2873, "\u008b\u009c": 2874, "\u0097\u0098": 2875, "\u0098'": 2876, "\u00ec\u00b2": 2877, "\u00eb\u00b2": 2878, "\u00a7\u00b8": 2879, "\u00a7\u0088": 2880, "\u00a7\u0080": 2881, "\u00a7\u0089": 2882, "=,": 2883, ",>": 2884, "\u0096\u00af": 2885, "\u00b8\u0083": 2886, "\u00b9\u00ef": 2887, "\u00ad\u0089": 2888, "z\u00e7": 2889, "\u00bc\u00e5": 2890, "\u00b7\u00b1": 2891, "\u00aa\u00e6": 2892, "\u00bb\u00b7": 2893, "\u0088\u009d": 2894, "\u00a7\u008b": 2895, "e\u00e6": 2896, "\u00a2\u00af": 2897, "\u00bb\u00a5": 2898, "\u00bb\u0084": 2899, "\u00a2\u0084": 2900, "\u00ae\u00ad": 2901, "\u00bb\u0083": 2902, "\u009b\u0086": 2903, "\u0087\u0086": 2904, "\u00a1\u00ae": 2905, "\u00b8\u008e": 2906, "\u00bc\u00e6": 2907, "\u00af\u0094": 2908, "y\u00e8": 2909, "e\u00ef": 2910, "\u00baf": 2911, "\u00b3\u00e7": 2912, "\u00ad\u0096": 2913, "\u00be\u00b9": 2914, "\u00b9\u00e7": 2915, "\u009f\u0090": 2916, "\u0098\u00a4": 2917, "\u00af\u008d": 2918, "\u0090\u0091": 2919, "\u00bb\u00b4": 2920, "\u0080\u0098": 2921, "\u0080\u009e": 2922, "\u009e]": 2923, "[`": 2924, "\u0099]": 2925, "\u008c]": 2926, "\u0099`": 2927, "\u00b6@": 2928, "\u0080\u0080": 2929, "+^": 2930, "[>": 2931, "\u00a4\u0095": 2932, "\u00b5\u00e0": 2933, "\u00a7&": 2934, "\u0086\u0090": 2935, "\u0086\u0093": 2936, "\u0086\u0091": 2937, "\u008e\u00bf": 2938, "\u0090\u0088": 2939, "\u0094\u00a3": 2940, "\u00a3'": 2941, "\u00be\u00b2": 2942, "\u00b2\u00e6": 2943, "\u009e\u0097": 2944, "\u0089\u00b1": 2945, "\u00a5\u00ad": 2946, "\u00ba\u00e8": 2947, "\u00a8\u00ad": 2948, "\u00a3\u009f": 2949, "\u0093\u0081": 2950, "\u008d\u00b0": 2951, "\u00b7'": 2952, "\u009b\u00bb": 2953, "\u00b0\u0097": 2954, "\u00bf\u00a1": 2955, "\u00a1'": 2956, "\u00e8\u00bc": 2957, "\u008a\u0080": 2958, "\u0091\u00ab": 2959, "\u008d\u009a": 2960, "\u00be\u00e9": 2961, "\u00a3\u009e": 2962, "\u009e\"": 2963, "\u00a1\u0095": 2964, "\u00b5\u00e5": 2965, "\u0090\"": 2966, "\u008d\u0097": 2967, "\u0083\"": 2968, "\u00f8\u00b5": 2969, "\u00b5\u00f9": 2970, "\u0083\u00ad": 2971, "\u0082\u00b0": 2972, "%[": 2973, "$/": 2974, "\u00b3n": 2975, "\u0094\u00af": 2976, "2\u00ef": 2977, "\u008d\u0087": 2978, "\u00ae\u009d": 2979, "\u00b0,": 2980, "\u0088\u00b8": 2981, "\u0095\u0086": 2982, "\u00a1\u00a5": 2983, "$#": 2984, "\u00af\u0091": 2985, "\u00bf\u0097": 2986, "\u008f\u008a": 2987, "\u00aa\u00e7": 2988, "\u0095'": 2989, "\u0094\u0099": 2990, "\u00af\u00af": 2991, "\u00ad\u00a4": 2992, "\u009d\u0083": 2993, "\u009f\u00a7": 2994, "\u00a7\u0099": 2995, "\u00ee\u00b2": 2996, "\u00ee\u00be": 2997, "\u0097\u00a6": 2998, "\u008a\u0093": 2999, "\u0090\u0086": 3000, "t\u00e5": 3001, "\u00a8'": 3002, "\u00a8:": 3003, "\u00ff": 3004, "\u00e2\u00be": 3005, ",=": 3006, "\u00ab'": 3007, "\\~": 3008, "\u00bcg": 3009, "\u00f0\u00b9": 3010, "\u00b9\u00f0": 3011, "\u00ba\u00f1": 3012, "\u00bck": 3013, "b\u00e4": 3014, "\u0099,": 3015, "\u00b3r": 3016, "w\u00e3": 3017, "&.": 3018, "#&": 3019, "\u00b1.": 3020, "\u009c)": 3021, "\u00bf\u009b": 3022, "\u0095\u0099": 3023, "0\u00e4": 3024, "\u00aap": 3025, "y\u00e4": 3026, "&[": 3027, "\u009b'": 3028, "\u00b8\u0093": 3029, "\u0080\u008a": 3030, "\u008a(": 3031, "\u0080\u008b": 3032, "\u009b\u0098": 3033, "\u0087\u008d": 3034, "\u00a7\u00bb": 3035, "\u00a4\u008d": 3036, "\u0088\u00b6": 3037, "\u00a1.": 3038, "c\u00e5": 3039, "\u00b5\u00e4": 3040, "\u00bd\u00bd": 3041, "\u00bc\u00ee": 3042, "\u00bd\u00ee": 3043, "\u00b5\u00ee": 3044, "\u00f3": 3045, "\u00ac'": 3046, "\u009e'": 3047, "\u0098\u00a8": 3048, "\u0081<": 3049, "\u00ac<": 3050, "\u0081\u00ae": 3051, "\u00ae'": 3052, "\u009c\u009d": 3053, "\u0081\u0097": 3054, "\u00bcm": 3055, "\u00e7\u00b5": 3056, "\u0093\u0088": 3057, "[=": 3058, "\u00bb\u0096": 3059, "\u0098\u0093": 3060, "\u009d\u00ad": 3061, "\u008e\u00a6": 3062, "\u00e1\u00b9": 3063, "o\u00e5": 3064, "\u00bc\u00f1": 3065, "$~": 3066, "@!": 3067, "?~": 3068, "-^": 3069, "@~": 3070, "?^": 3071, "$>": 3072, "<~": 3073, "!#": 3074, "{;": 3075, "~&": 3076, "-~": 3077, "<+": 3078, "$}": 3079, "~^": 3080, "~>": 3081, "\u00a2\u009c": 3082, "\u00bb\u00ac": 3083, "\u00b0\u00b1": 3084, "\u009b\u00b4": 3085, "\u009d\u009d": 3086, "\u0082\u00ae": 3087, "\u008e\u00a8": 3088, "n\u00e9": 3089, "r\u00ef": 3090, "\u0092\u0088": 3091, "\u00b9c": 3092, "v\u00e5": 3093, "y\u00ef": 3094, "f\u00e9": 3095, "a\u00ef": 3096, "\u00ba\u00e4": 3097, "\u008f\u00a3": 3098, "\u00bb\u009f": 3099, "4\u00ef": 3100, ".=": 3101, "\u00f0\u00b2": 3102, "\u00b2\u00f0": 3103, ".\u00d7": 3104, "\u00d7\u00a2": 3105, "\u00a2\u00d7": 3106, "\u0091\u00d7": 3107, "\u00d7\u00a8": 3108, "\u00a8\u00d7": 3109, "\u00d7\u0099": 3110, "\u0099\u00d7": 3111, "\u00bcc": 3112, "\u00ac[": 3113, "\u00a2[": 3114, "\u00ac\\": 3115, "\u00bc\u00be": 3116, "\u00be\u00ef": 3117, "\u0080\"": 3118, "m\u00e4": 3119, "\u00af\u00b8": 3120, "2\u00e3": 3121, "\u0080*": 3122, "\u00b0^": 3123, "\u008e\u008b": 3124, "\u0089\u0093": 3125, "\u0089\u0088": 3126, "\u00b4\u00a6": 3127, "\u008f\u00b7": 3128, "\u00b0\u009a": 3129, "\u0081\u0094": 3130, "\u00e7\u00b3": 3131, "\u00b4\u009f": 3132, "\u00b4\u00a3": 3133, "\u00b4'": 3134, "\u00bf\u00ab": 3135, "]^": 3136, "\u00a4\u0087": 3137, "\u00e7\u00be": 3138, "\u0089\u0087": 3139, "\u0087'": 3140, "\u00ad\u00a3": 3141, "\u00ae\u008c": 3142, "\u0088\u0090": 3143, "p\u00ef": 3144, "\u00bdn": 3145, "(\u00b0": 3146, "@/": 3147, "/&": 3148, "y\u00e2": 3149, "\u00ac\u0080": 3150, "\u00bd\u00f1": 3151, "\u00b5\u00e2": 3152, "\u008b:": 3153, "\u00ba1": 3154, "\u008f\u0097": 3155, "\u00b3\u00fb": 3156, "^^": 3157, "{=": 3158, "\u0080'": 3159, "\u0095\u0092": 3160, "\u00ae\u0089": 3161, "b\u00e5": 3162, "\u008e\u00af": 3163, "\u00a2\u0083": 3164, "\u008f\u0098": 3165, "\u008d\u0088": 3166, "\u00af\u008f": 3167, "\u0081\u008c": 3168, "\u0096\u00b0": 3169, "\u00b8\u00a4": 3170, "\u00b2\u00e7": 3171, "\u009e\u0084": 3172, "\u00b1\u00b1": 3173, "\u00e5\u00b3": 3174, "\u00e6\u00b2": 3175}, "words": {"__unk": 0, "__pad": 1}, "kwargs": {"vocab_size": 32000, "pct_bpe": 1.0, "silent": true, "ngram_min": 2, "ngram_max": 2, "required_tokens": ["__unk", "__pad"], "strict": false, "EOW": "__eow", "SOW": "__sow", "UNK": "__unk", "PAD": "__pad"}}